/*
 * Copyright (c) 2025 EdgeImpulse Inc.
 *
 * Generated by Edge Impulse and licensed under the applicable Edge Impulse
 * Terms of Service. Community and Professional Terms of Service
 * (https://edgeimpulse.com/legal/terms-of-service) or Enterprise Terms of
 * Service (https://edgeimpulse.com/legal/enterprise-terms-of-service),
 * according to your product plan subscription (the “License”).
 *
 * This software, documentation and other associated files (collectively referred
 * to as the “Software”) is a single SDK variation generated by the Edge Impulse
 * platform and requires an active paid Edge Impulse subscription to use this
 * Software for any purpose.
 *
 * You may NOT use this Software unless you have an active Edge Impulse subscription
 * that meets the eligibility requirements for the applicable License, subject to
 * your full and continued compliance with the terms and conditions of the License,
 * including without limitation any usage restrictions under the applicable License.
 *
 * If you do not have an active Edge Impulse product plan subscription, or if use
 * of this Software exceeds the usage limitations of your Edge Impulse product plan
 * subscription, you are not permitted to use this Software and must immediately
 * delete and erase all copies of this Software within your control or possession.
 * Edge Impulse reserves all rights and remedies available to enforce its rights.
 *
 * Unless required by applicable law or agreed to in writing, the Software is
 * distributed on an "AS IS" BASIS, WITHOUT WARRANTIES OR CONDITIONS OF ANY KIND,
 * either express or implied. See the License for the specific language governing
 * permissions, disclaimers and limitations under the License.
 */

#ifndef _EI_CLASSIFIER_TFLITE_LEARN_48_H_
#define _EI_CLASSIFIER_TFLITE_LEARN_48_H_

#define EI_CLASSIFIER_TFLITE_LEARN_48_ARENA_SIZE     2982
const size_t tflite_learn_48_arena_size = 2982;

#if defined __GNUC__
#define ALIGN(X) __attribute__((aligned(X)))
#elif defined _MSC_VER
#define ALIGN(X) __declspec(align(X))
#elif defined __TASKING__
#define ALIGN(X) __align(X)
#else
#define ALIGN(X)
#endif

#if defined(EI_MODEL_SECTION) && (defined(__GNUC__) || defined(__clang__))
#define STRINGIZE(x) #x
#define STRINGIZE_VALUE_OF(x) STRINGIZE(x)
#define MODEL_SECTION(X) __attribute__((section(STRINGIZE_VALUE_OF(X))))
#else
#define MODEL_SECTION(X)
#endif


MODEL_SECTION(EI_MODEL_SECTION) ALIGN(16) const unsigned char tflite_learn_48[] = {
  0x1c, 0x00, 0x00, 0x00, 0x54, 0x46, 0x4c, 0x33, 0x14, 0x00, 0x20, 0x00,
  0x1c, 0x00, 0x18, 0x00, 0x14, 0x00, 0x10, 0x00, 0x0c, 0x00, 0x00, 0x00,
  0x08, 0x00, 0x04, 0x00, 0x14, 0x00, 0x00, 0x00, 0x1c, 0x00, 0x00, 0x00,
  0x8c, 0x00, 0x00, 0x00, 0xe4, 0x00, 0x00, 0x00, 0x80, 0x06, 0x00, 0x00,
  0x90, 0x06, 0x00, 0x00, 0x54, 0x0d, 0x00, 0x00, 0x03, 0x00, 0x00, 0x00,
  0x01, 0x00, 0x00, 0x00, 0x10, 0x00, 0x00, 0x00, 0x00, 0x00, 0x0a, 0x00,
  0x10, 0x00, 0x0c, 0x00, 0x08, 0x00, 0x04, 0x00, 0x0a, 0x00, 0x00, 0x00,
  0x0c, 0x00, 0x00, 0x00, 0x1c, 0x00, 0x00, 0x00, 0x3c, 0x00, 0x00, 0x00,
  0x0f, 0x00, 0x00, 0x00, 0x73, 0x65, 0x72, 0x76, 0x69, 0x6e, 0x67, 0x5f,
  0x64, 0x65, 0x66, 0x61, 0x75, 0x6c, 0x74, 0x00, 0x01, 0x00, 0x00, 0x00,
  0x04, 0x00, 0x00, 0x00, 0x9c, 0xff, 0xff, 0xff, 0x0a, 0x00, 0x00, 0x00,
  0x04, 0x00, 0x00, 0x00, 0x08, 0x00, 0x00, 0x00, 0x6f, 0x75, 0x74, 0x70,
  0x75, 0x74, 0x5f, 0x30, 0x00, 0x00, 0x00, 0x00, 0x01, 0x00, 0x00, 0x00,
  0x04, 0x00, 0x00, 0x00, 0x66, 0xf9, 0xff, 0xff, 0x04, 0x00, 0x00, 0x00,
  0x01, 0x00, 0x00, 0x00, 0x78, 0x00, 0x00, 0x00, 0x02, 0x00, 0x00, 0x00,
  0x34, 0x00, 0x00, 0x00, 0x04, 0x00, 0x00, 0x00, 0xdc, 0xff, 0xff, 0xff,
  0x0d, 0x00, 0x00, 0x00, 0x04, 0x00, 0x00, 0x00, 0x13, 0x00, 0x00, 0x00,
  0x43, 0x4f, 0x4e, 0x56, 0x45, 0x52, 0x53, 0x49, 0x4f, 0x4e, 0x5f, 0x4d,
  0x45, 0x54, 0x41, 0x44, 0x41, 0x54, 0x41, 0x00, 0x08, 0x00, 0x0c, 0x00,
  0x08, 0x00, 0x04, 0x00, 0x08, 0x00, 0x00, 0x00, 0x0c, 0x00, 0x00, 0x00,
  0x04, 0x00, 0x00, 0x00, 0x13, 0x00, 0x00, 0x00, 0x6d, 0x69, 0x6e, 0x5f,
  0x72, 0x75, 0x6e, 0x74, 0x69, 0x6d, 0x65, 0x5f, 0x76, 0x65, 0x72, 0x73,
  0x69, 0x6f, 0x6e, 0x00, 0x0e, 0x00, 0x00, 0x00, 0x98, 0x05, 0x00, 0x00,
  0x90, 0x05, 0x00, 0x00, 0x70, 0x05, 0x00, 0x00, 0x38, 0x05, 0x00, 0x00,
  0x00, 0x05, 0x00, 0x00, 0x28, 0x04, 0x00, 0x00, 0xc8, 0x03, 0x00, 0x00,
  0xac, 0x00, 0x00, 0x00, 0xa4, 0x00, 0x00, 0x00, 0x9c, 0x00, 0x00, 0x00,
  0x94, 0x00, 0x00, 0x00, 0x8c, 0x00, 0x00, 0x00, 0x6c, 0x00, 0x00, 0x00,
  0x04, 0x00, 0x00, 0x00, 0x0e, 0xfa, 0xff, 0xff, 0x04, 0x00, 0x00, 0x00,
  0x58, 0x00, 0x00, 0x00, 0x0c, 0x00, 0x00, 0x00, 0x08, 0x00, 0x0e, 0x00,
  0x08, 0x00, 0x04, 0x00, 0x08, 0x00, 0x00, 0x00, 0x10, 0x00, 0x00, 0x00,
  0x28, 0x00, 0x00, 0x00, 0x00, 0x00, 0x06, 0x00, 0x08, 0x00, 0x04, 0x00,
  0x06, 0x00, 0x00, 0x00, 0x04, 0x00, 0x00, 0x00, 0x01, 0x00, 0x00, 0x00,
  0xeb, 0x03, 0x00, 0x00, 0x00, 0x00, 0x0a, 0x00, 0x10, 0x00, 0x0c, 0x00,
  0x08, 0x00, 0x04, 0x00, 0x0a, 0x00, 0x00, 0x00, 0x03, 0x00, 0x00, 0x00,
  0x02, 0x00, 0x00, 0x00, 0x04, 0x00, 0x00, 0x00, 0x06, 0x00, 0x00, 0x00,
  0x32, 0x2e, 0x31, 0x31, 0x2e, 0x31, 0x00, 0x00, 0x72, 0xfa, 0xff, 0xff,
  0x04, 0x00, 0x00, 0x00, 0x10, 0x00, 0x00, 0x00, 0x31, 0x2e, 0x31, 0x34,
  0x2e, 0x30, 0x00, 0x00, 0x00, 0x00, 0x00, 0x00, 0x00, 0x00, 0x00, 0x00,
  0x5c, 0xfa, 0xff, 0xff, 0x60, 0xfa, 0xff, 0xff, 0x64, 0xfa, 0xff, 0xff,
  0x68, 0xfa, 0xff, 0xff, 0x9e, 0xfa, 0xff, 0xff, 0x04, 0x00, 0x00, 0x00,
  0x0c, 0x03, 0x00, 0x00, 0xef, 0x02, 0xe2, 0x37, 0x13, 0x1d, 0x11, 0xd7,
  0x16, 0xcc, 0xfb, 0x18, 0xd1, 0xc1, 0xeb, 0x1c, 0x0e, 0x2e, 0xe8, 0xe4,
  0x40, 0xf9, 0x3e, 0x1d, 0xd2, 0x43, 0xe4, 0xc6, 0xe4, 0xbd, 0x0b, 0x1c,
  0x28, 0xce, 0xcb, 0x32, 0xea, 0x4b, 0x1a, 0xbe, 0xf3, 0x1f, 0x1c, 0xfc,
  0x1b, 0x18, 0x24, 0x29, 0x47, 0xd1, 0x26, 0xfb, 0x0f, 0x39, 0xc3, 0x46,
  0x2d, 0x5a, 0xe2, 0xfe, 0x08, 0x32, 0x0a, 0x2f, 0x0e, 0x10, 0x4d, 0xed,
  0xe2, 0x06, 0x5b, 0x4f, 0x54, 0x3b, 0xf4, 0xdb, 0x0a, 0x1e, 0x1a, 0xfc,
  0xd7, 0xbe, 0x0e, 0xc8, 0x15, 0x25, 0x2e, 0xe6, 0xb7, 0xf7, 0xbc, 0x08,
  0xe4, 0x42, 0x04, 0x16, 0xeb, 0x08, 0x2e, 0xab, 0x10, 0xb5, 0xf2, 0xda,
  0x35, 0x24, 0xe1, 0xbb, 0xd0, 0x1f, 0x14, 0xbf, 0xe4, 0xdf, 0xbd, 0xf8,
  0x33, 0x96, 0x23, 0xbd, 0x3a, 0x0d, 0x23, 0x01, 0x4a, 0x1e, 0xc9, 0x2c,
  0x2e, 0x5d, 0x0d, 0xe1, 0xb5, 0xe2, 0xf8, 0x2c, 0x43, 0xe6, 0x35, 0xe8,
  0x03, 0x48, 0x5e, 0xd9, 0xc8, 0x7f, 0x39, 0xec, 0x2c, 0x3e, 0xf6, 0x45,
  0x33, 0x69, 0xee, 0x5a, 0x35, 0x0a, 0x26, 0xd6, 0xc8, 0xc1, 0x2d, 0xdf,
  0xcd, 0x12, 0xd5, 0xf2, 0xb9, 0xe4, 0xde, 0x43, 0x28, 0x2b, 0xec, 0xe1,
  0xe7, 0x2c, 0xdf, 0xdc, 0xd1, 0xe9, 0x2c, 0x12, 0xe9, 0xc8, 0x19, 0xcd,
  0x3b, 0xce, 0xe9, 0xdf, 0xe8, 0xbc, 0xff, 0xeb, 0x44, 0x10, 0xf6, 0xe0,
  0xd2, 0x0f, 0x4d, 0xed, 0x17, 0xc8, 0xef, 0xc4, 0x1b, 0x0c, 0xfe, 0xbb,
  0x0d, 0xf0, 0x0b, 0xd0, 0xcc, 0xff, 0xe3, 0x38, 0xf3, 0x0d, 0x01, 0xda,
  0x3f, 0xef, 0xf2, 0x2e, 0xcf, 0x09, 0xb9, 0x28, 0xd1, 0x15, 0x45, 0xf8,
  0xd4, 0xee, 0xf1, 0xd0, 0x13, 0x45, 0xfd, 0x1e, 0x1c, 0x09, 0x2f, 0x30,
  0xf8, 0xd5, 0xf8, 0xf6, 0x58, 0x55, 0xfe, 0x23, 0x06, 0x3c, 0xfb, 0x23,
  0x3e, 0x84, 0x5d, 0x12, 0x28, 0xc5, 0x13, 0x17, 0xf0, 0x54, 0xe5, 0x42,
  0xf6, 0x5d, 0xb9, 0x21, 0x3e, 0x3d, 0x2e, 0x2e, 0x32, 0x09, 0x58, 0x1c,
  0x69, 0xda, 0x3e, 0xed, 0xe1, 0xeb, 0xdd, 0xd4, 0x48, 0x45, 0xd7, 0xea,
  0x01, 0xf1, 0x26, 0xea, 0x51, 0x8f, 0xfa, 0x12, 0x3b, 0x16, 0xc0, 0xdd,
  0xa6, 0xdb, 0xef, 0xfa, 0x11, 0x33, 0x34, 0x06, 0xdb, 0x2a, 0xfa, 0xd2,
  0xf5, 0xea, 0xff, 0x2e, 0x4b, 0xd2, 0xec, 0xea, 0x2c, 0xf0, 0x49, 0x14,
  0x43, 0x34, 0x47, 0x20, 0x36, 0x38, 0x34, 0xc1, 0x67, 0xc7, 0x22, 0xc8,
  0xf4, 0x0a, 0xdd, 0x08, 0xd9, 0x51, 0xf0, 0xbf, 0x1f, 0xc8, 0xfa, 0xd8,
  0x16, 0xaf, 0xef, 0xcc, 0xb0, 0xba, 0xc7, 0xb5, 0xe8, 0xd7, 0x45, 0xf4,
  0x23, 0x1e, 0xc0, 0xe2, 0x1f, 0x00, 0x32, 0x3a, 0x25, 0x01, 0x17, 0xfc,
  0x1c, 0xdd, 0xe9, 0xca, 0xfa, 0x2d, 0x12, 0x2b, 0x30, 0xf2, 0x41, 0x1a,
  0x1e, 0xbc, 0xc9, 0xe4, 0x27, 0x0a, 0xfb, 0x16, 0xcb, 0x14, 0x11, 0xca,
  0x20, 0xd8, 0xfc, 0xfc, 0x1c, 0x12, 0xc9, 0x24, 0xc4, 0x39, 0x3c, 0xf6,
  0xdc, 0xeb, 0x30, 0x2e, 0xbd, 0xca, 0xca, 0xf2, 0x46, 0x3e, 0xed, 0xcb,
  0xcb, 0x05, 0x2a, 0x3a, 0xf0, 0xd3, 0xcd, 0x52, 0xec, 0x33, 0xf6, 0x46,
  0x45, 0x21, 0x5a, 0xf5, 0x16, 0xec, 0xf5, 0x42, 0x08, 0xf5, 0xef, 0x40,
  0xfe, 0x0f, 0x17, 0x48, 0x2b, 0x42, 0x1b, 0xf8, 0x05, 0x1c, 0xfc, 0x27,
  0x06, 0xe3, 0x20, 0x1b, 0xbc, 0xad, 0x14, 0xfc, 0x39, 0xaa, 0xc9, 0xac,
  0xb4, 0x0d, 0xd9, 0xa8, 0x13, 0x1b, 0xce, 0x31, 0x21, 0x03, 0x3b, 0xf0,
  0x1d, 0x25, 0xd3, 0x24, 0x1e, 0xf2, 0x11, 0xab, 0x5e, 0x00, 0xef, 0x1d,
  0xca, 0x52, 0x44, 0x4c, 0x55, 0xf4, 0xf3, 0x2c, 0xb6, 0xe2, 0x06, 0x49,
  0x53, 0xe3, 0x4e, 0x0a, 0x25, 0x2f, 0x25, 0x53, 0x2b, 0xe7, 0xe1, 0xc5,
  0x02, 0xcd, 0xf8, 0xde, 0xd2, 0x1b, 0xe9, 0xe6, 0xc6, 0xc6, 0x17, 0xfe,
  0x0a, 0x17, 0xb6, 0xd7, 0xc8, 0x07, 0x1e, 0x1f, 0xef, 0x1a, 0x55, 0xad,
  0xff, 0x0e, 0x02, 0xcb, 0xdd, 0x06, 0x12, 0x07, 0x3a, 0xaa, 0xb1, 0x59,
  0xc7, 0x11, 0xc4, 0x09, 0x10, 0xbb, 0x2b, 0x2c, 0xd3, 0x14, 0xa4, 0xbe,
  0xe7, 0xa7, 0x46, 0xe9, 0x3c, 0xc5, 0xde, 0x26, 0xf6, 0xcd, 0xb8, 0xf4,
  0x09, 0xf4, 0x39, 0xd4, 0xb6, 0xb7, 0x07, 0xec, 0xfe, 0x0a, 0x09, 0xef,
  0x0c, 0xd0, 0x14, 0x27, 0x40, 0x01, 0x14, 0x0c, 0x1b, 0xb3, 0x2c, 0xb8,
  0x0f, 0x01, 0xf2, 0xe0, 0xf0, 0xf4, 0xd1, 0x0b, 0xe5, 0xde, 0x1c, 0xf5,
  0x0c, 0x00, 0xc3, 0x18, 0xf5, 0xe1, 0xce, 0x06, 0x43, 0xf9, 0xec, 0xd9,
  0x22, 0xcc, 0xc7, 0xf4, 0x1a, 0x1a, 0xf1, 0xfc, 0xd4, 0xe6, 0x2e, 0xf4,
  0xd0, 0xe6, 0x1f, 0xf4, 0x2c, 0xf6, 0x0e, 0x3f, 0xd2, 0x3d, 0x23, 0x1a,
  0x44, 0xe7, 0xfa, 0xee, 0x2d, 0xe2, 0x03, 0xf9, 0x21, 0x51, 0x2d, 0x2e,
  0xe9, 0xe1, 0x34, 0x13, 0xf0, 0xe4, 0x3e, 0xd5, 0x36, 0xe1, 0x06, 0xcb,
  0x0c, 0x36, 0xd2, 0x1d, 0xd9, 0xc5, 0x37, 0xcd, 0xb6, 0xd6, 0x29, 0xed,
  0xd7, 0xf7, 0xc5, 0xfe, 0x08, 0xfb, 0x34, 0x31, 0xc5, 0x08, 0x8c, 0xef,
  0x06, 0xd1, 0x30, 0x15, 0xc7, 0x0c, 0x04, 0xe9, 0xad, 0xed, 0xb2, 0xda,
  0xe8, 0xb9, 0x1e, 0xf0, 0xfe, 0x2a, 0xe9, 0x4f, 0xd2, 0x53, 0xf7, 0xc1,
  0x2f, 0x3e, 0xa7, 0xf0, 0x3e, 0x12, 0xf2, 0xd9, 0x52, 0x40, 0x2c, 0xf0,
  0xea, 0x0c, 0x3b, 0x14, 0xec, 0xfb, 0xf7, 0x22, 0x05, 0x3f, 0x3b, 0xd3,
  0x3e, 0x2f, 0x38, 0x0b, 0xf4, 0x0c, 0xd1, 0xd0, 0x07, 0xda, 0xb5, 0x2a,
  0xbe, 0xef, 0xf5, 0xdb, 0xdd, 0x26, 0x47, 0xe7, 0xfb, 0x2b, 0xc5, 0xf6,
  0x07, 0xb0, 0xfd, 0xf2, 0xb6, 0xfd, 0xff, 0xff, 0x04, 0x00, 0x00, 0x00,
  0x50, 0x00, 0x00, 0x00, 0xe4, 0xff, 0xff, 0xff, 0x82, 0x00, 0x00, 0x00,
  0x9b, 0xff, 0xff, 0xff, 0x5c, 0x00, 0x00, 0x00, 0x22, 0x00, 0x00, 0x00,
  0xe0, 0xff, 0xff, 0xff, 0x45, 0x00, 0x00, 0x00, 0x1b, 0x00, 0x00, 0x00,
  0x50, 0x00, 0x00, 0x00, 0xef, 0xff, 0xff, 0xff, 0xf8, 0xff, 0xff, 0xff,
  0x11, 0x00, 0x00, 0x00, 0x7a, 0x00, 0x00, 0x00, 0x31, 0x00, 0x00, 0x00,
  0x2c, 0x00, 0x00, 0x00, 0xc6, 0xff, 0xff, 0xff, 0x40, 0x00, 0x00, 0x00,
  0xef, 0xff, 0xff, 0xff, 0x96, 0x00, 0x00, 0x00, 0x56, 0x00, 0x00, 0x00,
  0x12, 0xfe, 0xff, 0xff, 0x04, 0x00, 0x00, 0x00, 0xc8, 0x00, 0x00, 0x00,
  0x29, 0xd2, 0xdd, 0x1e, 0x33, 0x12, 0x61, 0xc1, 0x13, 0xea, 0x16, 0x27,
  0x40, 0x60, 0x37, 0xc8, 0xf6, 0xfa, 0xa8, 0x1f, 0xde, 0xa3, 0x2f, 0x07,
  0x48, 0xf1, 0xdb, 0xbb, 0xde, 0x22, 0xef, 0x07, 0x4d, 0x0e, 0x41, 0x3e,
  0x02, 0x1b, 0x0d, 0x05, 0xf2, 0xb9, 0xff, 0x44, 0xdf, 0xd6, 0xe5, 0x11,
  0xe3, 0xf8, 0x17, 0x1d, 0xeb, 0xc6, 0xf8, 0xcf, 0x3d, 0xbc, 0xba, 0xc7,
  0x23, 0x03, 0x3f, 0xf3, 0xcd, 0x3a, 0xd1, 0xe1, 0xf6, 0x2f, 0x4f, 0x2c,
  0xc5, 0xbe, 0xf9, 0xe4, 0xeb, 0xd8, 0x41, 0x48, 0xda, 0x2a, 0xba, 0xce,
  0xf5, 0x34, 0xeb, 0x22, 0xc1, 0x28, 0x44, 0x41, 0xe3, 0x28, 0x10, 0xc2,
  0xf4, 0x45, 0x5a, 0x37, 0xcd, 0x3f, 0xdd, 0x10, 0xf0, 0xad, 0x15, 0x50,
  0xaf, 0xe8, 0x31, 0x69, 0xbb, 0x44, 0x03, 0xde, 0xf7, 0x3c, 0xa0, 0xf7,
  0x48, 0x33, 0xdb, 0xe9, 0x3c, 0x33, 0x05, 0xf3, 0xdc, 0xfc, 0x26, 0x11,
  0xd0, 0xf0, 0x09, 0xf3, 0x3e, 0xfc, 0x13, 0xdc, 0x0f, 0x5d, 0x18, 0x7f,
  0xe0, 0x34, 0x3e, 0xae, 0x4c, 0xd7, 0xcd, 0x1c, 0x3e, 0xf4, 0xa6, 0x17,
  0x43, 0xfb, 0x33, 0x28, 0x25, 0x11, 0x21, 0x0d, 0x45, 0x21, 0xae, 0xea,
  0xee, 0x07, 0x4a, 0x1a, 0xf2, 0xb1, 0xe3, 0x41, 0xc2, 0x2d, 0xf4, 0xf8,
  0x1b, 0xc7, 0xf1, 0xf9, 0x3b, 0x4e, 0xfb, 0x03, 0x4e, 0xc3, 0xde, 0x31,
  0xdc, 0xd5, 0x25, 0xf1, 0xee, 0x3b, 0xfa, 0x45, 0xe6, 0xfe, 0xff, 0xff,
  0x04, 0x00, 0x00, 0x00, 0x28, 0x00, 0x00, 0x00, 0xa3, 0x00, 0x00, 0x00,
  0x73, 0x00, 0x00, 0x00, 0x07, 0x00, 0x00, 0x00, 0xb9, 0xff, 0xff, 0xff,
  0xf8, 0xff, 0xff, 0xff, 0xa1, 0x00, 0x00, 0x00, 0x86, 0x00, 0x00, 0x00,
  0x69, 0x00, 0x00, 0x00, 0xa9, 0xff, 0xff, 0xff, 0xec, 0xff, 0xff, 0xff,
  0x1a, 0xff, 0xff, 0xff, 0x04, 0x00, 0x00, 0x00, 0x28, 0x00, 0x00, 0x00,
  0x47, 0x65, 0x68, 0xdc, 0xfd, 0x92, 0x89, 0xdb, 0x66, 0x39, 0x46, 0xc4,
  0xad, 0xa0, 0x93, 0x8e, 0x00, 0x3e, 0xe1, 0xf8, 0x81, 0x4a, 0xbc, 0xa0,
  0x43, 0x8b, 0x6f, 0x38, 0x31, 0xbf, 0x08, 0xe1, 0x01, 0x2b, 0x31, 0xf3,
  0x4a, 0xb2, 0xa9, 0x9e, 0x4e, 0xff, 0xff, 0xff, 0x04, 0x00, 0x00, 0x00,
  0x10, 0x00, 0x00, 0x00, 0xa0, 0xff, 0xff, 0xff, 0x8a, 0x00, 0x00, 0x00,
  0x79, 0xff, 0xff, 0xff, 0x49, 0x00, 0x00, 0x00, 0x38, 0xff, 0xff, 0xff,
  0x3c, 0xff, 0xff, 0xff, 0x0f, 0x00, 0x00, 0x00, 0x4d, 0x4c, 0x49, 0x52,
  0x20, 0x43, 0x6f, 0x6e, 0x76, 0x65, 0x72, 0x74, 0x65, 0x64, 0x2e, 0x00,
  0x01, 0x00, 0x00, 0x00, 0x14, 0x00, 0x00, 0x00, 0x00, 0x00, 0x0e, 0x00,
  0x18, 0x00, 0x14, 0x00, 0x10, 0x00, 0x0c, 0x00, 0x08, 0x00, 0x04, 0x00,
  0x0e, 0x00, 0x00, 0x00, 0x14, 0x00, 0x00, 0x00, 0x1c, 0x00, 0x00, 0x00,
  0x28, 0x01, 0x00, 0x00, 0x2c, 0x01, 0x00, 0x00, 0x30, 0x01, 0x00, 0x00,
  0x04, 0x00, 0x00, 0x00, 0x6d, 0x61, 0x69, 0x6e, 0x00, 0x00, 0x00, 0x00,
  0x04, 0x00, 0x00, 0x00, 0xd0, 0x00, 0x00, 0x00, 0x88, 0x00, 0x00, 0x00,
  0x50, 0x00, 0x00, 0x00, 0x14, 0x00, 0x00, 0x00, 0x00, 0x00, 0x0e, 0x00,
  0x1a, 0x00, 0x14, 0x00, 0x10, 0x00, 0x0c, 0x00, 0x0b, 0x00, 0x04, 0x00,
  0x0e, 0x00, 0x00, 0x00, 0x1c, 0x00, 0x00, 0x00, 0x00, 0x00, 0x00, 0x09,
  0x1c, 0x00, 0x00, 0x00, 0x20, 0x00, 0x00, 0x00, 0x01, 0x00, 0x00, 0x00,
  0x00, 0x00, 0x06, 0x00, 0x08, 0x00, 0x04, 0x00, 0x06, 0x00, 0x00, 0x00,
  0x00, 0x00, 0x80, 0x3f, 0x01, 0x00, 0x00, 0x00, 0x0a, 0x00, 0x00, 0x00,
  0x01, 0x00, 0x00, 0x00, 0x09, 0x00, 0x00, 0x00, 0x96, 0xff, 0xff, 0xff,
  0x14, 0x00, 0x00, 0x00, 0x00, 0x00, 0x00, 0x08, 0x10, 0x00, 0x00, 0x00,
  0x14, 0x00, 0x00, 0x00, 0x04, 0x00, 0x04, 0x00, 0x04, 0x00, 0x00, 0x00,
  0x01, 0x00, 0x00, 0x00, 0x09, 0x00, 0x00, 0x00, 0x03, 0x00, 0x00, 0x00,
  0x08, 0x00, 0x00, 0x00, 0x02, 0x00, 0x00, 0x00, 0x01, 0x00, 0x00, 0x00,
  0xca, 0xff, 0xff, 0xff, 0x10, 0x00, 0x00, 0x00, 0x00, 0x00, 0x00, 0x08,
  0x10, 0x00, 0x00, 0x00, 0x14, 0x00, 0x00, 0x00, 0xba, 0xff, 0xff, 0xff,
  0x00, 0x00, 0x00, 0x01, 0x01, 0x00, 0x00, 0x00, 0x08, 0x00, 0x00, 0x00,
  0x03, 0x00, 0x00, 0x00, 0x07, 0x00, 0x00, 0x00, 0x04, 0x00, 0x00, 0x00,
  0x03, 0x00, 0x00, 0x00, 0x00, 0x00, 0x0e, 0x00, 0x16, 0x00, 0x00, 0x00,
  0x10, 0x00, 0x0c, 0x00, 0x0b, 0x00, 0x04, 0x00, 0x0e, 0x00, 0x00, 0x00,
  0x18, 0x00, 0x00, 0x00, 0x00, 0x00, 0x00, 0x08, 0x18, 0x00, 0x00, 0x00,
  0x1c, 0x00, 0x00, 0x00, 0x00, 0x00, 0x06, 0x00, 0x08, 0x00, 0x07, 0x00,
  0x06, 0x00, 0x00, 0x00, 0x00, 0x00, 0x00, 0x01, 0x01, 0x00, 0x00, 0x00,
  0x07, 0x00, 0x00, 0x00, 0x03, 0x00, 0x00, 0x00, 0x00, 0x00, 0x00, 0x00,
  0x06, 0x00, 0x00, 0x00, 0x05, 0x00, 0x00, 0x00, 0x01, 0x00, 0x00, 0x00,
  0x0a, 0x00, 0x00, 0x00, 0x01, 0x00, 0x00, 0x00, 0x00, 0x00, 0x00, 0x00,
  0x0b, 0x00, 0x00, 0x00, 0xf8, 0x04, 0x00, 0x00, 0x68, 0x04, 0x00, 0x00,
  0xfc, 0x03, 0x00, 0x00, 0x80, 0x03, 0x00, 0x00, 0x14, 0x03, 0x00, 0x00,
  0xa0, 0x02, 0x00, 0x00, 0x34, 0x02, 0x00, 0x00, 0x98, 0x01, 0x00, 0x00,
  0xf4, 0x00, 0x00, 0x00, 0x70, 0x00, 0x00, 0x00, 0x04, 0x00, 0x00, 0x00,
  0x4a, 0xfb, 0xff, 0xff, 0x00, 0x00, 0x00, 0x01, 0x14, 0x00, 0x00, 0x00,
  0x30, 0x00, 0x00, 0x00, 0x0b, 0x00, 0x00, 0x00, 0x00, 0x00, 0x00, 0x09,
  0x44, 0x00, 0x00, 0x00, 0x34, 0xfb, 0xff, 0xff, 0x08, 0x00, 0x00, 0x00,
  0x10, 0x00, 0x00, 0x00, 0x01, 0x00, 0x00, 0x00, 0x80, 0xff, 0xff, 0xff,
  0xff, 0xff, 0xff, 0xff, 0x01, 0x00, 0x00, 0x00, 0x00, 0x00, 0x80, 0x3b,
  0x19, 0x00, 0x00, 0x00, 0x53, 0x74, 0x61, 0x74, 0x65, 0x66, 0x75, 0x6c,
  0x50, 0x61, 0x72, 0x74, 0x69, 0x74, 0x69, 0x6f, 0x6e, 0x65, 0x64, 0x43,
  0x61, 0x6c, 0x6c, 0x3a, 0x30, 0x00, 0x00, 0x00, 0x02, 0x00, 0x00, 0x00,
  0x01, 0x00, 0x00, 0x00, 0x04, 0x00, 0x00, 0x00, 0xb2, 0xfb, 0xff, 0xff,
  0x00, 0x00, 0x00, 0x01, 0x14, 0x00, 0x00, 0x00, 0x30, 0x00, 0x00, 0x00,
  0x0a, 0x00, 0x00, 0x00, 0x00, 0x00, 0x00, 0x09, 0x5c, 0x00, 0x00, 0x00,
  0x9c, 0xfb, 0xff, 0xff, 0x08, 0x00, 0x00, 0x00, 0x10, 0x00, 0x00, 0x00,
  0x01, 0x00, 0x00, 0x00, 0xd1, 0xff, 0xff, 0xff, 0xff, 0xff, 0xff, 0xff,
  0x01, 0x00, 0x00, 0x00, 0xdf, 0x7a, 0x1f, 0x3e, 0x32, 0x00, 0x00, 0x00,
  0x73, 0x65, 0x71, 0x75, 0x65, 0x6e, 0x74, 0x69, 0x61, 0x6c, 0x2f, 0x79,
  0x5f, 0x70, 0x72, 0x65, 0x64, 0x2f, 0x4d, 0x61, 0x74, 0x4d, 0x75, 0x6c,
  0x3b, 0x73, 0x65, 0x71, 0x75, 0x65, 0x6e, 0x74, 0x69, 0x61, 0x6c, 0x2f,
  0x79, 0x5f, 0x70, 0x72, 0x65, 0x64, 0x2f, 0x42, 0x69, 0x61, 0x73, 0x41,
  0x64, 0x64, 0x00, 0x00, 0x02, 0x00, 0x00, 0x00, 0x01, 0x00, 0x00, 0x00,
  0x04, 0x00, 0x00, 0x00, 0x32, 0xfc, 0xff, 0xff, 0x00, 0x00, 0x00, 0x01,
  0x14, 0x00, 0x00, 0x00, 0x34, 0x00, 0x00, 0x00, 0x09, 0x00, 0x00, 0x00,
  0x00, 0x00, 0x00, 0x09, 0x7c, 0x00, 0x00, 0x00, 0x1c, 0xfc, 0xff, 0xff,
  0x08, 0x00, 0x00, 0x00, 0x14, 0x00, 0x00, 0x00, 0x01, 0x00, 0x00, 0x00,
  0x80, 0xff, 0xff, 0xff, 0xff, 0xff, 0xff, 0xff, 0x00, 0x00, 0x00, 0x00,
  0x01, 0x00, 0x00, 0x00, 0x17, 0x20, 0xab, 0x3d, 0x4c, 0x00, 0x00, 0x00,
  0x73, 0x65, 0x71, 0x75, 0x65, 0x6e, 0x74, 0x69, 0x61, 0x6c, 0x2f, 0x64,
  0x65, 0x6e, 0x73, 0x65, 0x5f, 0x31, 0x2f, 0x4d, 0x61, 0x74, 0x4d, 0x75,
  0x6c, 0x3b, 0x73, 0x65, 0x71, 0x75, 0x65, 0x6e, 0x74, 0x69, 0x61, 0x6c,
  0x2f, 0x64, 0x65, 0x6e, 0x73, 0x65, 0x5f, 0x31, 0x2f, 0x52, 0x65, 0x6c,
  0x75, 0x3b, 0x73, 0x65, 0x71, 0x75, 0x65, 0x6e, 0x74, 0x69, 0x61, 0x6c,
  0x2f, 0x64, 0x65, 0x6e, 0x73, 0x65, 0x5f, 0x31, 0x2f, 0x42, 0x69, 0x61,
  0x73, 0x41, 0x64, 0x64, 0x00, 0x00, 0x00, 0x00, 0x02, 0x00, 0x00, 0x00,
  0x01, 0x00, 0x00, 0x00, 0x0a, 0x00, 0x00, 0x00, 0xd2, 0xfc, 0xff, 0xff,
  0x00, 0x00, 0x00, 0x01, 0x14, 0x00, 0x00, 0x00, 0x34, 0x00, 0x00, 0x00,
  0x08, 0x00, 0x00, 0x00, 0x00, 0x00, 0x00, 0x09, 0x74, 0x00, 0x00, 0x00,
  0xbc, 0xfc, 0xff, 0xff, 0x08, 0x00, 0x00, 0x00, 0x14, 0x00, 0x00, 0x00,
  0x01, 0x00, 0x00, 0x00, 0x80, 0xff, 0xff, 0xff, 0xff, 0xff, 0xff, 0xff,
  0x00, 0x00, 0x00, 0x00, 0x01, 0x00, 0x00, 0x00, 0x17, 0xe0, 0xb3, 0x3d,
  0x46, 0x00, 0x00, 0x00, 0x73, 0x65, 0x71, 0x75, 0x65, 0x6e, 0x74, 0x69,
  0x61, 0x6c, 0x2f, 0x64, 0x65, 0x6e, 0x73, 0x65, 0x2f, 0x4d, 0x61, 0x74,
  0x4d, 0x75, 0x6c, 0x3b, 0x73, 0x65, 0x71, 0x75, 0x65, 0x6e, 0x74, 0x69,
  0x61, 0x6c, 0x2f, 0x64, 0x65, 0x6e, 0x73, 0x65, 0x2f, 0x52, 0x65, 0x6c,
  0x75, 0x3b, 0x73, 0x65, 0x71, 0x75, 0x65, 0x6e, 0x74, 0x69, 0x61, 0x6c,
  0x2f, 0x64, 0x65, 0x6e, 0x73, 0x65, 0x2f, 0x42, 0x69, 0x61, 0x73, 0x41,
  0x64, 0x64, 0x00, 0x00, 0x02, 0x00, 0x00, 0x00, 0x01, 0x00, 0x00, 0x00,
  0x14, 0x00, 0x00, 0x00, 0x6a, 0xfd, 0xff, 0xff, 0x00, 0x00, 0x00, 0x01,
  0x14, 0x00, 0x00, 0x00, 0x34, 0x00, 0x00, 0x00, 0x07, 0x00, 0x00, 0x00,
  0x00, 0x00, 0x00, 0x09, 0x44, 0x00, 0x00, 0x00, 0x54, 0xfd, 0xff, 0xff,
  0x08, 0x00, 0x00, 0x00, 0x14, 0x00, 0x00, 0x00, 0x01, 0x00, 0x00, 0x00,
  0x00, 0x00, 0x00, 0x00, 0x00, 0x00, 0x00, 0x00, 0x00, 0x00, 0x00, 0x00,
  0x01, 0x00, 0x00, 0x00, 0xe9, 0x08, 0x96, 0x3b, 0x17, 0x00, 0x00, 0x00,
  0x73, 0x65, 0x71, 0x75, 0x65, 0x6e, 0x74, 0x69, 0x61, 0x6c, 0x2f, 0x64,
  0x65, 0x6e, 0x73, 0x65, 0x2f, 0x4d, 0x61, 0x74, 0x4d, 0x75, 0x6c, 0x00,
  0x02, 0x00, 0x00, 0x00, 0x14, 0x00, 0x00, 0x00, 0x27, 0x00, 0x00, 0x00,
  0xd2, 0xfd, 0xff, 0xff, 0x00, 0x00, 0x00, 0x01, 0x14, 0x00, 0x00, 0x00,
  0x30, 0x00, 0x00, 0x00, 0x06, 0x00, 0x00, 0x00, 0x00, 0x00, 0x00, 0x02,
  0x50, 0x00, 0x00, 0x00, 0xbc, 0xfd, 0xff, 0xff, 0x08, 0x00, 0x00, 0x00,
  0x10, 0x00, 0x00, 0x00, 0x01, 0x00, 0x00, 0x00, 0x00, 0x00, 0x00, 0x00,
  0x00, 0x00, 0x00, 0x00, 0x01, 0x00, 0x00, 0x00, 0xc1, 0xdb, 0x4d, 0x3a,
  0x27, 0x00, 0x00, 0x00, 0x73, 0x65, 0x71, 0x75, 0x65, 0x6e, 0x74, 0x69,
  0x61, 0x6c, 0x2f, 0x64, 0x65, 0x6e, 0x73, 0x65, 0x2f, 0x42, 0x69, 0x61,
  0x73, 0x41, 0x64, 0x64, 0x2f, 0x52, 0x65, 0x61, 0x64, 0x56, 0x61, 0x72,
  0x69, 0x61, 0x62, 0x6c, 0x65, 0x4f, 0x70, 0x00, 0x01, 0x00, 0x00, 0x00,
  0x14, 0x00, 0x00, 0x00, 0x42, 0xfe, 0xff, 0xff, 0x00, 0x00, 0x00, 0x01,
  0x14, 0x00, 0x00, 0x00, 0x30, 0x00, 0x00, 0x00, 0x05, 0x00, 0x00, 0x00,
  0x00, 0x00, 0x00, 0x09, 0x44, 0x00, 0x00, 0x00, 0x2c, 0xfe, 0xff, 0xff,
  0x08, 0x00, 0x00, 0x00, 0x10, 0x00, 0x00, 0x00, 0x01, 0x00, 0x00, 0x00,
  0x00, 0x00, 0x00, 0x00, 0x00, 0x00, 0x00, 0x00, 0x01, 0x00, 0x00, 0x00,
  0x1a, 0x35, 0xb2, 0x3b, 0x19, 0x00, 0x00, 0x00, 0x73, 0x65, 0x71, 0x75,
  0x65, 0x6e, 0x74, 0x69, 0x61, 0x6c, 0x2f, 0x64, 0x65, 0x6e, 0x73, 0x65,
  0x5f, 0x31, 0x2f, 0x4d, 0x61, 0x74, 0x4d, 0x75, 0x6c, 0x00, 0x00, 0x00,
  0x02, 0x00, 0x00, 0x00, 0x0a, 0x00, 0x00, 0x00, 0x14, 0x00, 0x00, 0x00,
  0xaa, 0xfe, 0xff, 0xff, 0x00, 0x00, 0x00, 0x01, 0x14, 0x00, 0x00, 0x00,
  0x34, 0x00, 0x00, 0x00, 0x04, 0x00, 0x00, 0x00, 0x00, 0x00, 0x00, 0x02,
  0x58, 0x00, 0x00, 0x00, 0x94, 0xfe, 0xff, 0xff, 0x08, 0x00, 0x00, 0x00,
  0x14, 0x00, 0x00, 0x00, 0x01, 0x00, 0x00, 0x00, 0x00, 0x00, 0x00, 0x00,
  0x00, 0x00, 0x00, 0x00, 0x00, 0x00, 0x00, 0x00, 0x01, 0x00, 0x00, 0x00,
  0x3f, 0x6e, 0xfa, 0x39, 0x29, 0x00, 0x00, 0x00, 0x73, 0x65, 0x71, 0x75,
  0x65, 0x6e, 0x74, 0x69, 0x61, 0x6c, 0x2f, 0x64, 0x65, 0x6e, 0x73, 0x65,
  0x5f, 0x31, 0x2f, 0x42, 0x69, 0x61, 0x73, 0x41, 0x64, 0x64, 0x2f, 0x52,
  0x65, 0x61, 0x64, 0x56, 0x61, 0x72, 0x69, 0x61, 0x62, 0x6c, 0x65, 0x4f,
  0x70, 0x00, 0x00, 0x00, 0x01, 0x00, 0x00, 0x00, 0x0a, 0x00, 0x00, 0x00,
  0x22, 0xff, 0xff, 0xff, 0x00, 0x00, 0x00, 0x01, 0x14, 0x00, 0x00, 0x00,
  0x30, 0x00, 0x00, 0x00, 0x03, 0x00, 0x00, 0x00, 0x00, 0x00, 0x00, 0x09,
  0x44, 0x00, 0x00, 0x00, 0x0c, 0xff, 0xff, 0xff, 0x08, 0x00, 0x00, 0x00,
  0x10, 0x00, 0x00, 0x00, 0x01, 0x00, 0x00, 0x00, 0x00, 0x00, 0x00, 0x00,
  0x00, 0x00, 0x00, 0x00, 0x01, 0x00, 0x00, 0x00, 0x54, 0xa0, 0xc7, 0x3b,
  0x18, 0x00, 0x00, 0x00, 0x73, 0x65, 0x71, 0x75, 0x65, 0x6e, 0x74, 0x69,
  0x61, 0x6c, 0x2f, 0x79, 0x5f, 0x70, 0x72, 0x65, 0x64, 0x2f, 0x4d, 0x61,
  0x74, 0x4d, 0x75, 0x6c, 0x00, 0x00, 0x00, 0x00, 0x02, 0x00, 0x00, 0x00,
  0x04, 0x00, 0x00, 0x00, 0x0a, 0x00, 0x00, 0x00, 0x8a, 0xff, 0xff, 0xff,
  0x00, 0x00, 0x00, 0x01, 0x14, 0x00, 0x00, 0x00, 0x30, 0x00, 0x00, 0x00,
  0x02, 0x00, 0x00, 0x00, 0x00, 0x00, 0x00, 0x02, 0x54, 0x00, 0x00, 0x00,
  0x74, 0xff, 0xff, 0xff, 0x08, 0x00, 0x00, 0x00, 0x10, 0x00, 0x00, 0x00,
  0x01, 0x00, 0x00, 0x00, 0x00, 0x00, 0x00, 0x00, 0x00, 0x00, 0x00, 0x00,
  0x01, 0x00, 0x00, 0x00, 0x1e, 0x71, 0x05, 0x3a, 0x28, 0x00, 0x00, 0x00,
  0x73, 0x65, 0x71, 0x75, 0x65, 0x6e, 0x74, 0x69, 0x61, 0x6c, 0x2f, 0x79,
  0x5f, 0x70, 0x72, 0x65, 0x64, 0x2f, 0x42, 0x69, 0x61, 0x73, 0x41, 0x64,
  0x64, 0x2f, 0x52, 0x65, 0x61, 0x64, 0x56, 0x61, 0x72, 0x69, 0x61, 0x62,
  0x6c, 0x65, 0x4f, 0x70, 0x00, 0x00, 0x00, 0x00, 0x01, 0x00, 0x00, 0x00,
  0x04, 0x00, 0x00, 0x00, 0x00, 0x00, 0x16, 0x00, 0x1c, 0x00, 0x18, 0x00,
  0x17, 0x00, 0x10, 0x00, 0x0c, 0x00, 0x08, 0x00, 0x00, 0x00, 0x00, 0x00,
  0x00, 0x00, 0x07, 0x00, 0x16, 0x00, 0x00, 0x00, 0x00, 0x00, 0x00, 0x01,
  0x20, 0x00, 0x00, 0x00, 0x40, 0x00, 0x00, 0x00, 0x01, 0x00, 0x00, 0x00,
  0x00, 0x00, 0x00, 0x09, 0x4c, 0x00, 0x00, 0x00, 0x0c, 0x00, 0x0c, 0x00,
  0x00, 0x00, 0x00, 0x00, 0x08, 0x00, 0x04, 0x00, 0x0c, 0x00, 0x00, 0x00,
  0x08, 0x00, 0x00, 0x00, 0x14, 0x00, 0x00, 0x00, 0x01, 0x00, 0x00, 0x00,
  0xa6, 0xff, 0xff, 0xff, 0xff, 0xff, 0xff, 0xff, 0x00, 0x00, 0x00, 0x00,
  0x01, 0x00, 0x00, 0x00, 0x06, 0xa0, 0x2f, 0x3e, 0x13, 0x00, 0x00, 0x00,
  0x73, 0x65, 0x72, 0x76, 0x69, 0x6e, 0x67, 0x5f, 0x64, 0x65, 0x66, 0x61,
  0x75, 0x6c, 0x74, 0x5f, 0x78, 0x3a, 0x30, 0x00, 0x02, 0x00, 0x00, 0x00,
  0x01, 0x00, 0x00, 0x00, 0x27, 0x00, 0x00, 0x00, 0x02, 0x00, 0x00, 0x00,
  0x24, 0x00, 0x00, 0x00, 0x04, 0x00, 0x00, 0x00, 0xf0, 0xff, 0xff, 0xff,
  0x19, 0x00, 0x00, 0x00, 0x02, 0x00, 0x00, 0x00, 0x00, 0x00, 0x00, 0x19,
  0x0c, 0x00, 0x10, 0x00, 0x0f, 0x00, 0x00, 0x00, 0x08, 0x00, 0x04, 0x00,
  0x0c, 0x00, 0x00, 0x00, 0x09, 0x00, 0x00, 0x00, 0x04, 0x00, 0x00, 0x00,
  0x00, 0x00, 0x00, 0x09
};
unsigned int tflite_learn_48_len = 3520;
#endif // _EI_CLASSIFIER_TFLITE_LEARN_48_H_
